<?xml version="1.0"?>
<opencv_storage>
<stage1>
  <maxWeakCount>8</maxWeakCount>
  <stageThreshold>2.9972985386848450e-01</stageThreshold>
  <weakClassifiers>
    <_>
      <internalNodes>
        0 -1 90021 5.0884885713458061e-03</internalNodes>
      <leafValues>
        -5.7234728336334229e-01 9.4179892539978027e-01</leafValues></_>
    <_>
      <internalNodes>
        0 -1 68325 4.7038313932716846e-03</internalNodes>
      <leafValues>
        -4.2979440093040466e-01 9.2526143789291382e-01</leafValues></_>
    <_>
      <internalNodes>
        0 -1 96407 1.7390882596373558e-02</internalNodes>
      <leafValues>
        5.2156001329421997e-01 -9.9517005681991577e-01</leafValues></_>
    <_>
      <internalNodes>
        0 -1 110819 1.0033855214715004e-02</internalNodes>
      <leafValues>
        -8.8748675584793091e-01 4.3062430620193481e-01</leafValues></_>
    <_>
      <internalNodes>
        0 -1 60166 -5.3144176490604877e-03</internalNodes>
      <leafValues>
        9.6395802497863770e-01 -4.6979478001594543e-01</leafValues></_>
    <_>
      <internalNodes>
        0 -1 78923 4.6427515335381031e-03</internalNodes>
      <leafValues>
        -4.9020403623580933e-01 9.7185742855072021e-01</leafValues></_>
    <_>
      <internalNodes>
        0 -1 123552 -2.3262511604116298e-05</internalNodes>
      <leafValues>
        -1. 5.2877819538116455e-01</leafValues></_>
    <_>
      <internalNodes>
        0 -1 98823 5.0676483660936356e-03</internalNodes>
      <leafValues>
        -5.7414799928665161e-01 1.</leafValues></_></weakClassifiers></stage1>
</opencv_storage>
